// activation: exp, x_min: -4, x_max: 4
unsigned short exp_wt[16] = {0x2be9, 0x34ea, 0x3a61, 0x3eda, 0x423c, 0x44da, 0x46b0, 0x4843, 0x49a9, 0x4b80, 0x4cfb, 0x4e56, 0x4f73, 0x5061, 0x515d, 0x528e};
unsigned short exp_bias[16] = {0x33e5, 0x397d, 0x3bff, 0x3aa0, 0xb659, 0xc18f, 0xc601, 0xc8dc, 0xcc06, 0xce66, 0xd0f4, 0xd312, 0xd475, 0xd597, 0xd764, 0xd8da};
unsigned short exp_x_region[16] = {0xbf29, 0xb91e, 0x31fa, 0x3afb, 0x3d7e, 0x3f08, 0x400c, 0x4090, 0x4128, 0x41b2, 0x4242, 0x42a1, 0x42f4, 0x434e, 0x43bc, 0x4400};
// activation: gelu, x_min: -4, x_max: 4
unsigned short gelu_wt[16] = {0x9c4f, 0xa885, 0xad17, 0xafbe, 0xa560, 0x3097, 0x3576, 0x3842, 0x39c1, 0x3b3d, 0x3c33, 0x3c7e, 0x3c4d, 0x3c21, 0x3c20, 0x3c04};
unsigned short gelu_bias[16] = {0xa416, 0xaeac, 0xb28f, 0xb484, 0xb1ea, 0xad21, 0xa349, 0x146a, 0xa766, 0xaec0, 0xb2b1, 0xb48f, 0xb24b, 0xae2a, 0xadf2, 0xa415};
unsigned short gelu_x_region[16] = {0xc1ad, 0xc08e, 0xbf75, 0xbbcc, 0xb918, 0xb555, 0xad21, 0x3122, 0x369a, 0x39b9, 0x3c26, 0x3f77, 0x40a9, 0x41a7, 0x41b8, 0x4400};
// activation: tanh, x_min: -4, x_max: 4
unsigned short tanh_wt[16] = {0x2014, 0x2bb9, 0x30b9, 0x33d1, 0x363d, 0x38ea, 0x3a9a, 0x3bd8, 0x3a5e, 0x38ab, 0x36a0, 0x3431, 0x3064, 0x2b11, 0x2452, 0x1b47};
unsigned short tanh_bias[16] = {0xbbc2, 0xbabc, 0xb97a, 0xb859, 0xb5eb, 0xb17d, 0xaa4b, 0x26, 0x2bd6, 0x3245, 0x358a, 0x3828, 0x399b, 0x3ad3, 0x3b8f, 0x3be2};
unsigned short tanh_x_region[16] = {0xc0e2, 0xbf37, 0xbdd5, 0xbcc4, 0xbb13, 0xb8a5, 0xb510, 0x3550, 0x3912, 0x3b17, 0x3c8e, 0x3dd1, 0x3f6f, 0x40c9, 0x4218, 0x4400};
// activation: sigmoid, x_min: -4, x_max: 4
unsigned short sigmoid_wt[16] = {0x26c6, 0x2a8c, 0x2d1e, 0x2f41, 0x30ac, 0x318e, 0x324b, 0x3309, 0x33db, 0x327c, 0x30ea, 0x2f78, 0x3275, 0x2d4f, 0x2a53, 0x267e};
unsigned short sigmoid_bias[16] = {0x2fda, 0x326f, 0x3469, 0x3589, 0x366e, 0x370a, 0x3774, 0x37c7, 0x3800, 0x3838, 0x38b1, 0x392f, 0x37a5, 0x39bd, 0x3a6e, 0x3b0d};
unsigned short sigmoid_x_region[16] = {0xc259, 0xc12d, 0xc038, 0xbed4, 0xbd88, 0xbc7f, 0xbaf6, 0xb855, 0x3925, 0x3cce, 0x3eac, 0x3fff, 0x4007, 0x412a, 0x4275, 0x4400};
// activation: swish, x_min: -4, x_max: 4
unsigned short swish_wt[16] = {0xac2f, 0xae0f, 0xa828, 0x2b6d, 0x3155, 0x34dc, 0x375b, 0x38cd, 0x3a00, 0x3b22, 0x3bdf, 0x3c2f, 0x3c5c, 0x3c79, 0x3c5f, 0x3c43};
unsigned short swish_bias[16] = {0xb550, 0xb6d4, 0xb523, 0xb2b9, 0xaf4f, 0xa8c1, 0xea6, 0xa09c, 0xabd3, 0xb128, 0xb41f, 0xb578, 0xb6b0, 0xb7bf, 0xb6ba, 0xb54f};
unsigned short swish_x_region[16] = {0xc275, 0xbecc, 0xbce7, 0xbb11, 0xb87f, 0xb3b4, 0x2c49, 0x3590, 0x39a9, 0x3c2c, 0x3d72, 0x3edd, 0x40a6, 0x40e3, 0x4280, 0x4400};
// activation: exp, x_min: -4, x_max: 4
unsigned short exp_wt[16] = {0x2ad6, 0x3360, 0x38d3, 0x3d60, 0x411b, 0x4421, 0x45ee, 0x4819, 0x49a9, 0x4b80, 0x4cc7, 0x4e17, 0x4fc3, 0x50bf, 0x5194, 0x528e};
unsigned short exp_bias[16] = {0x3300, 0x38a2, 0x3b6c, 0x3bce, 0x3238, 0xbecb, 0xc49a, 0xc881, 0xcc06, 0xce66, 0xd0a8, 0xd2ac, 0xd4b9, 0xd641, 0xd7cd, 0xd8da};
unsigned short exp_x_region[16] = {0xc012, 0xbb7c, 0xac2a, 0x392d, 0x3ccd, 0x3e72, 0x3fc9, 0x408a, 0x4128, 0x41aa, 0x4226, 0x42a2, 0x4317, 0x4370, 0x43c3, 0x4400};
// activation: swish, x_min: -4, x_max: 4
unsigned short swish_wt[16] = {0xac00, 0xad57, 0xae2e, 0xaa9d, 0x240a, 0x2e15, 0x325c, 0x352a, 0x36b4, 0x3852, 0x396c, 0x3a69, 0x3b70, 0x3c21, 0x3c61, 0x3c43};
unsigned short swish_bias[16] = {0xb524, 0xb648, 0xb6e6, 0xb59c, 0xb420, 0xb192, 0xade6, 0xa7e0, 0x9e5a, 0xef9, 0xa7e8, 0xade6, 0xb24a, 0xb523, 0xb6d4, 0xb552};
unsigned short swish_x_region[16] = {0xc2d4, 0xc1dd, 0xbf2d, 0xbd80, 0xbc3b, 0xba52, 0xb7eb, 0xb415, 0xaaff, 0x334a, 0x37ec, 0x3a83, 0x3cd6, 0x3ecc, 0x4273, 0x4400};
// activation: swish, x_min: -5, x_max: 5
unsigned short swish_wt[16] = {0xa8ec, 0xac6b, 0xae1b, 0xa989, 0x2953, 0x3198, 0x34db, 0x36cc, 0x389a, 0x3993, 0x3a72, 0x3b70, 0x3c23, 0x3c61, 0x3c41, 0x3c25};
unsigned short swish_bias[16] = {0xb32a, 0xb585, 0xb6da, 0xb567, 0xb346, 0xaee0, 0xa8ef, 0x9c1b, 0x9c16, 0xa8f0, 0xae19, 0xb24c, 0xb52d, 0xb6d6, 0xb535, 0xb2c0};
unsigned short swish_x_region[16] = {0xc3f0, 0xc250, 0xbef7, 0xbd33, 0xbb32, 0xb849, 0xb48f, 0x871a, 0x348f, 0x3829, 0x3a8c, 0x3cd9, 0x3ed7, 0x427d, 0x441f, 0x4500};
// activation: swish, x_min: -10, x_max: 10
unsigned short swish_wt[16] = {0x98bc, 0xa3da, 0xa867, 0x29dd, 0xab74, 0xadf3, 0x24ee, 0x3426, 0x3867, 0x3a48, 0x3ba8, 0x3c5d, 0x3c4b, 0x3c32, 0x3c14, 0x3c03};
unsigned short swish_bias[16] = {0xa5b0, 0xaedf, 0xb28c, 0x3090, 0xb4e2, 0xb6c3, 0xb3f4, 0xaacd, 0x1c57, 0xad37, 0xb32b, 0xb6ab, 0xb5bd, 0xb446, 0xb034, 0xa64e};
unsigned short swish_x_region[16] = {0xc68a, 0xc51a, 0xc454, 0xc44e, 0xc2c1, 0xbe34, 0xba83, 0xb251, 0x35d7, 0x3a9f, 0x3dc4, 0x4285, 0x4370, 0x44ae, 0x464c, 0x4900};
