// activation: exp, x_min: -4, x_max: 4
unsigned short exp_wt[16] = {0x2b88, 0x34be, 0x3a1b, 0x3e0d, 0x4116, 0x43f2, 0x45ee, 0x4819, 0x49a9, 0x4b80, 0x4cc7, 0x4e17, 0x4fc3, 0x50bf, 0x5194, 0x528e};
unsigned short exp_bias[16] = {0x3395, 0x3966, 0x3be3, 0x3b4c, 0x31fb, 0xbde0, 0xc49a, 0xc881, 0xcc06, 0xce66, 0xd0a8, 0xd2ac, 0xd4b9, 0xd641, 0xd7cd, 0xd8da};
unsigned short exp_x_region[16] = {0xbf60, 0xb956, 0x2e4b, 0x39a4, 0x3ca2, 0x3e66, 0x3fc9, 0x408a, 0x4128, 0x41aa, 0x4226, 0x42a2, 0x4317, 0x4370, 0x43c3, 0x4400};
// activation: gelu, x_min: -4, x_max: 4
unsigned short gelu_wt[16] = {0x9a19, 0xa5b9, 0xac0a, 0xafc1, 0xac0c, 0x2a9a, 0x3408, 0x3800, 0x3985, 0x3ada, 0x3c15, 0x3c7c, 0x3c5f, 0x3c3c, 0x3c1a, 0x3c03};
unsigned short gelu_bias[16] = {0xa1dd, 0xac76, 0xb175, 0xb487, 0xb31c, 0xb03a, 0xa8a5, 0x1aa7, 0xa5b0, 0xad21, 0xb1ea, 0xb486, 0xb363, 0xb120, 0xacec, 0xa1e4};
unsigned short gelu_x_region[16] = {0xc203, 0xc0f2, 0xbfbf, 0xbc32, 0xba47, 0xb7a5, 0xb119, 0x304a, 0x358f, 0x3918, 0x3bce, 0x3f35, 0x4032, 0x40e6, 0x41f7, 0x4400};
// activation: tanh, x_min: -4, x_max: 4
unsigned short tanh_wt[16] = {0x1d70, 0x2820, 0x2d93, 0x3176, 0x3478, 0x36a0, 0x38ea, 0x3ace, 0x3bde, 0x3a5e, 0x386e, 0x34d7, 0x3018, 0x2a7a, 0x24b2, 0x1c14};
unsigned short tanh_bias[16] = {0xbbd5, 0xbb3e, 0xba51, 0xb92f, 0xb7f8, 0xb58a, 0xb17e, 0xa8bc, 0x8e3f, 0x2bd8, 0x32f9, 0x3774, 0x39ba, 0x3ae9, 0x3b87, 0x3bdf};
unsigned short tanh_x_region[16] = {0xc17b, 0xc037, 0xbec7, 0xbd85, 0xbc83, 0xbafa, 0xb88d, 0xb469, 0x3543, 0x392d, 0x3be4, 0x3db9, 0x3fa6, 0x40ce, 0x41f8, 0x4400};
// activation: sigmoid, x_min: -4, x_max: 4
unsigned short sigmoid_wt[16] = {0x2682, 0x2a1f, 0x2cfa, 0x2fb4, 0x3169, 0x32d3, 0x33bf, 0x3401, 0x33b6, 0x32ea, 0x31c6, 0x306e, 0x2e0a, 0x2bd4, 0x2958, 0x2642};
unsigned short sigmoid_bias[16] = {0x2f9a, 0x3220, 0x3454, 0x35c1, 0x36f5, 0x37b4, 0x37f9, 0x3800, 0x3804, 0x3822, 0x386a, 0x38e1, 0x3989, 0x3a2c, 0x3a9e, 0x3b14};
unsigned short sigmoid_x_region[16] = {0xc27b, 0xc14b, 0xc02e, 0xbe2e, 0xbc36, 0xb8b7, 0xb227, 0x3333, 0x38ad, 0x3bd2, 0x3d8c, 0x3f75, 0x40cc, 0x41bf, 0x42ac, 0x4400};
// activation: swish, x_min: -4, x_max: 4
unsigned short swish_wt[16] = {0xac2f, 0xae03, 0xa6a5, 0x2d55, 0x336d, 0x3615, 0x3829, 0x396b, 0x3aab, 0x3b71, 0x3bf4, 0x3c1f, 0x3c3a, 0x3c61, 0x3c62, 0x3c44};
unsigned short swish_bias[16] = {0xb550, 0xb6cb, 0xb4fe, 0xb1da, 0xac9a, 0xa25d, 0x1188, 0xa759, 0xaf4e, 0xb25a, 0xb455, 0xb51b, 0xb5c0, 0xb6da, 0xb6e1, 0xb567};
unsigned short swish_x_region[16] = {0xc27c, 0xbe9f, 0xbcbb, 0xb9f8, 0xb66c, 0xadfe, 0x31fd, 0x3861, 0x3af7, 0x3c82, 0x3d6b, 0x3dfb, 0x3f32, 0x40a9, 0x4258, 0x4400};
