// activation: swish, x_min: -12, x_max: 10
unsigned short silu_wt[16] = {0x0000, 0x9310, 0xa122, 0xa78a, 0xab4b, 0xadd1, 0x29a0, 0x342b, 0x37f6, 0x397d, 0x3aca, 0x3bf7, 0x3c5c, 0x3c22, 0x3c04, 0x3c00};
unsigned short silu_bias[16] = {0x0000, 0xa0e3, 0xacd9, 0xb1cf, 0xb4d0, 0xb6ab, 0xb317, 0xaacf, 0x1bce, 0xa83d, 0xaff2, 0xb451, 0xb6a3, 0xb274, 0xa824, 0x0000};
unsigned short silu_x_region[16] = {0xca00, 0xc73a, 0xc573, 0xc454, 0xc2d8, 0xbdcb, 0xba39, 0xb3b1, 0x3245, 0x387b, 0x3bef, 0x3e25, 0x4388, 0x45b8, 0x4900, 0x0000};
// activation: exp, x_min: -5, x_max: 0
unsigned short exp_wt[16] = {0x20d0, 0x246a, 0x2769, 0x29c5, 0x2c42, 0x2e21, 0x305b, 0x3230, 0x3458, 0x35de, 0x37a3, 0x38c9, 0x39ed, 0x3b56};
unsigned short exp_bias[16] = {0x2ad7, 0x2d9a, 0x3037, 0x31ec, 0x33ea, 0x3522, 0x3688, 0x3819, 0x3903, 0x39e3, 0x3aa7, 0x3b40, 0x3bb7, 0x3bfc};
unsigned short exp_x_region[16] = {0xc500, 0xc457, 0xc392, 0xc29d, 0xc1cb, 0xc10a, 0xc055, 0xbf41, 0xbdde, 0xbc95, 0xbaee, 0xb8f7, 0xb685, 0xb211, 0x0};
// activation: exp, x_min: -5, x_max: 0
unsigned short exp_wt[16] = {0x222f, 0x2801, 0x2bee, 0x2eb5, 0x3144, 0x33a9, 0x350b, 0x362a, 0x3715, 0x37ed, 0x388c, 0x395b, 0x3a63, 0x3b84};
unsigned short exp_bias[16] = {0x2c3a, 0x307f, 0x3386, 0x3579, 0x3767, 0x38a9, 0x3970, 0x3a06, 0x3a6e, 0x3ac0, 0x3b1f, 0x3b83, 0x3bd5, 0x3bfe};
unsigned short exp_x_region[16] = {0xc500, 0xc3c1, 0xc22c, 0xc0ff, 0xc009, 0xbe69, 0xbd1f, 0xbc32, 0xbb05, 0xba15, 0xb914, 0xb7be, 0xb4fd, 0xb081, 0x0};
// activation: exp, x_min: -5, x_max: 0
unsigned short exp_wt[16] = {0x21c3, 0x26c8, 0x2a68, 0x2d36, 0x2f95, 0x311f, 0x3293, 0x341f, 0x352b, 0x367b, 0x381e, 0x3929, 0x3a4f, 0x3b84};
unsigned short exp_bias[16] = {0x2bf7, 0x2fe3, 0x326b, 0x3494, 0x35f2, 0x3742, 0x3840, 0x38dc, 0x3983, 0x3a2d, 0x3add, 0x3b6e, 0x3bd1, 0x3bfe};
unsigned short exp_x_region[16] = {0xc500, 0xc402, 0xc290, 0xc176, 0xc09d, 0xbfe7, 0xbecd, 0xbddf, 0xbcf7, 0xbc0f, 0xba45, 0xb85d, 0xb562, 0xb0a0, 0x0};
// activation: exp, x_min: -5, x_max: 0
unsigned short exp_wt[16] = {0x2167, 0x25ac, 0x28e9, 0x2bb8, 0x2dc2, 0x3024, 0x31e3, 0x3414, 0x355f, 0x36d2, 0x3846, 0x3939, 0x3a3a, 0x3b6d};
unsigned short exp_bias[16] = {0x2b8a, 0x2ed8, 0x313e, 0x335d, 0x34ea, 0x3651, 0x37f1, 0x38d5, 0x39a0, 0x3a53, 0x3af6, 0x3b75, 0x3bcc, 0x3bfd};
unsigned short exp_x_region[16] = {0xc500, 0xc423, 0xc306, 0xc20b, 0xc132, 0xc070, 0xbf74, 0xbe16, 0xbce3, 0xbbbd, 0xb9e7, 0xb82b, 0xb565, 0xb129, 0x0};
// activation: exp, x_min: -5, x_max: 0
unsigned short exp_wt[16] = {0x2175, 0x25e2, 0x295d, 0x2c5f, 0x2e88, 0x3093, 0x321c, 0x33da, 0x34eb, 0x363f, 0x3804, 0x3908, 0x3a27, 0x3b6d};
unsigned short exp_bias[16] = {0x2b9b, 0x2f0c, 0x319d, 0x3409, 0x355e, 0x36bf, 0x3810, 0x38ba, 0x395e, 0x3a12, 0x3acb, 0x3b5f, 0x3bc7, 0x3bfd};
unsigned short exp_x_region[16] = {0xc500, 0xc41d, 0xc2e6, 0xc1d1, 0xc0f2, 0xc035, 0xbf2e, 0xbe18, 0xbd29, 0xbc3d, 0xba80, 0xb890, 0xb5c9, 0xb148, 0x0};
// activation: exp, x_min: -5, x_max: 0
unsigned short exp_wt[16] = {0x215b, 0x25e3, 0x2962, 0x2c55, 0x2eb6, 0x30e1, 0x32ad, 0x3474, 0x35b9, 0x372b, 0x386f, 0x395b, 0x3a4d, 0x3b6d};
unsigned short exp_bias[16] = {0x2b7c, 0x2f0e, 0x31a0, 0x3402, 0x3579, 0x370a, 0x384a, 0x3915, 0x39cf, 0x3a78, 0x3b0f, 0x3b83, 0x3bd0, 0x3bfd};
unsigned short exp_x_region[16] = {0xc500, 0xc421, 0xc2e0, 0xc1d6, 0xc0ee, 0xc01c, 0xbedf, 0xbdab, 0xbc96, 0xbb4f, 0xb98a, 0xb7df, 0xb511, 0xb10b, 0x0};
// activation: exp, x_min: -5, x_max: 0
// activation: exp, x_min: -5, x_max: 0
unsigned short exp_wt[16] = {0x218c, 0x25fd, 0x2920, 0x2ba3, 0x2d5a, 0x2f51, 0x30e0, 0x326c, 0x3420, 0x352c, 0x3667, 0x37d3, 0x38d9, 0x3a00, 0x3b56};
unsigned short exp_bias[16] = {0x2bb7, 0x2f25, 0x316a, 0x334d, 0x34aa, 0x35cd, 0x3708, 0x3830, 0x38dd, 0x3983, 0x3a23, 0x3ab8, 0x3b49, 0x3bbc, 0x3bfc};
unsigned short exp_x_region[16] = {0xc500, 0xc417, 0xc2eb, 0xc202, 0xc14a, 0xc0a3, 0xc00a, 0xbef6, 0xbde5, 0xbcf6, 0xbc13, 0xba83, 0xb8de, 0xb640, 0xb1f1, 0x0};
// activation: exp, x_min: -5, x_max: 0
unsigned short exp_wt[16] = {0x2123, 0x253b, 0x289f, 0x2b2c, 0x2d06, 0x2edb, 0x30b1, 0x3258, 0x343c, 0x3570, 0x36d0, 0x3838, 0x3929, 0x3a3a, 0x3b6c};
unsigned short exp_bias[16] = {0x2b3a, 0x2e6b, 0x3101, 0x32f9, 0x3475, 0x358d, 0x36db, 0x3829, 0x38f0, 0x39a9, 0x3a53, 0x3aed, 0x3b6e, 0x3bcc, 0x3bfd};
unsigned short exp_x_region[16] = {0xc500, 0xc437, 0xc32a, 0xc22b, 0xc167, 0xc0c7, 0xc024, 0xbf10, 0xbddf, 0xbcca, 0xbbb7, 0xb9f1, 0xb84d, 0xb574, 0xb12b, 0x0};
// activation: exp, x_min: -5, x_max: 0
unsigned short exp_wt[16] = {0x213e, 0x2579, 0x28db, 0x2bb6, 0x2dc3, 0x3017, 0x3186, 0x3331, 0x34ae, 0x3618, 0x37ef, 0x3918, 0x3a3a, 0x3b54, 0x3d44};
unsigned short exp_bias[16] = {0x2b5a, 0x2ea7, 0x3133, 0x335c, 0x34eb, 0x3643, 0x37a0, 0x387d, 0x3939, 0x39ff, 0x3ac3, 0x3b68, 0x3bcb, 0x3bfa, 0x3c00};
unsigned short exp_x_region[16] = {0xc500, 0xc42d, 0xc310, 0xc20d, 0xc132, 0xc072, 0xbf99, 0xbe7a, 0xbd71, 0xbc5f, 0xbaa9, 0xb88f, 0xb585, 0xb14f, 0x9f12, 0x0};
// activation: exp, x_min: -5, x_max: 0
unsigned short exp_wt[16] = {0x2128, 0x253d, 0x289a, 0x2b39, 0x2d32, 0x2f1c, 0x30c0, 0x3243, 0x3421, 0x355f, 0x36d1, 0x3838, 0x3929, 0x3a3a, 0x3b6d};
unsigned short exp_bias[16] = {0x2b41, 0x2e6d, 0x30fd, 0x3302, 0x3491, 0x35b0, 0x36e9, 0x3820, 0x38de, 0x39a0, 0x3a53, 0x3aed, 0x3b6e, 0x3bcc, 0x3bfd};
unsigned short exp_x_region[16] = {0xc500, 0xc435, 0xc32b, 0xc22b, 0xc15d, 0xc0b2, 0xc018, 0xbf11, 0xbdf5, 0xbcdf, 0xbbbe, 0xb9f0, 0xb84d, 0xb575, 0xb128, 0x0};
